#ifndef MODELO_PREDATOR_H
#define MODELO_PREDATOR_H

// Tamanho do modelo: 2944 bytes
const unsigned int modelo_tflite_len = 2944;

const unsigned char modelo_tflite[] __attribute__((aligned(16))) = {
  0x1c, 0x00, 0x00, 0x00, 0x54, 0x46, 0x4c, 0x33, 0x14, 0x00, 0x20, 0x00,
  0x1c, 0x00, 0x18, 0x00, 0x14, 0x00, 0x10, 0x00, 0x0c, 0x00, 0x00, 0x00,
  0x08, 0x00, 0x04, 0x00, 0x14, 0x00, 0x00, 0x00, 0x1c, 0x00, 0x00, 0x00,
  0x98, 0x00, 0x00, 0x00, 0xf0, 0x00, 0x00, 0x00, 0x5c, 0x05, 0x00, 0x00,
  0x6c, 0x05, 0x00, 0x00, 0x1c, 0x0b, 0x00, 0x00, 0x03, 0x00, 0x00, 0x00,
  0x01, 0x00, 0x00, 0x00, 0x10, 0x00, 0x00, 0x00, 0x00, 0x00, 0x0a, 0x00,
  0x10, 0x00, 0x0c, 0x00, 0x08, 0x00, 0x04, 0x00, 0x0a, 0x00, 0x00, 0x00,
  0x0c, 0x00, 0x00, 0x00, 0x1c, 0x00, 0x00, 0x00, 0x3c, 0x00, 0x00, 0x00,
  0x0f, 0x00, 0x00, 0x00, 0x73, 0x65, 0x72, 0x76, 0x69, 0x6e, 0x67, 0x5f,
  0x64, 0x65, 0x66, 0x61, 0x75, 0x6c, 0x74, 0x00, 0x01, 0x00, 0x00, 0x00,
  0x04, 0x00, 0x00, 0x00, 0x90, 0xff, 0xff, 0xff, 0x0a, 0x00, 0x00, 0x00,
  0x04, 0x00, 0x00, 0x00, 0x08, 0x00, 0x00, 0x00, 0x6f, 0x75, 0x74, 0x70,
  0x75, 0x74, 0x5f, 0x30, 0x00, 0x00, 0x00, 0x00, 0x01, 0x00, 0x00, 0x00,
  0x04, 0x00, 0x00, 0x00, 0x8a, 0xfa, 0xff, 0xff, 0x04, 0x00, 0x00, 0x00,
  0x0c, 0x00, 0x00, 0x00, 0x6b, 0x65, 0x72, 0x61, 0x73, 0x5f, 0x74, 0x65,
  0x6e, 0x73, 0x6f, 0x72, 0x00, 0x00, 0x00, 0x00, 0x02, 0x00, 0x00, 0x00,
  0x34, 0x00, 0x00, 0x00, 0x04, 0x00, 0x00, 0x00, 0xdc, 0xff, 0xff, 0xff,
  0x0d, 0x00, 0x00, 0x00, 0x04, 0x00, 0x00, 0x00, 0x13, 0x00, 0x00, 0x00,
  0x43, 0x4f, 0x4e, 0x56, 0x45, 0x52, 0x53, 0x49, 0x4f, 0x4e, 0x5f, 0x4d,
  0x45, 0x54, 0x41, 0x44, 0x41, 0x54, 0x41, 0x00, 0x08, 0x00, 0x0c, 0x00,
  0x08, 0x00, 0x04, 0x00, 0x08, 0x00, 0x00, 0x00, 0x0c, 0x00, 0x00, 0x00,
  0x04, 0x00, 0x00, 0x00, 0x13, 0x00, 0x00, 0x00, 0x6d, 0x69, 0x6e, 0x5f,
  0x72, 0x75, 0x6e, 0x74, 0x69, 0x6d, 0x65, 0x5f, 0x76, 0x65, 0x72, 0x73,
  0x69, 0x6f, 0x6e, 0x00, 0x0e, 0x00, 0x00, 0x00, 0x68, 0x04, 0x00, 0x00,
  0x60, 0x04, 0x00, 0x00, 0x30, 0x04, 0x00, 0x00, 0x14, 0x04, 0x00, 0x00,
  0xa4, 0x03, 0x00, 0x00, 0x94, 0x01, 0x00, 0x00, 0x04, 0x01, 0x00, 0x00,
  0xb4, 0x00, 0x00, 0x00, 0xac, 0x00, 0x00, 0x00, 0xa4, 0x00, 0x00, 0x00,
  0x9c, 0x00, 0x00, 0x00, 0x94, 0x00, 0x00, 0x00, 0x74, 0x00, 0x00, 0x00,
  0x04, 0x00, 0x00, 0x00, 0x3e, 0xfb, 0xff, 0xff, 0x04, 0x00, 0x00, 0x00,
  0x60, 0x00, 0x00, 0x00, 0x10, 0x00, 0x00, 0x00, 0x00, 0x00, 0x00, 0x00,
  0x08, 0x00, 0x0e, 0x00, 0x08, 0x00, 0x04, 0x00, 0x08, 0x00, 0x00, 0x00,
  0x10, 0x00, 0x00, 0x00, 0x24, 0x00, 0x00, 0x00, 0x00, 0x00, 0x06, 0x00,
  0x08, 0x00, 0x04, 0x00, 0x06, 0x00, 0x00, 0x00, 0x04, 0x00, 0x00, 0x00,
  0x00, 0x00, 0x00, 0x00, 0x0c, 0x00, 0x18, 0x00, 0x14, 0x00, 0x10, 0x00,
  0x0c, 0x00, 0x04, 0x00, 0x0c, 0x00, 0x00, 0x00, 0x70, 0x4f, 0x6e, 0x96,
  0x6b, 0x36, 0x6d, 0xdf, 0x02, 0x00, 0x00, 0x00, 0x02, 0x00, 0x00, 0x00,
  0x04, 0x00, 0x00, 0x00, 0x06, 0x00, 0x00, 0x00, 0x32, 0x2e, 0x32, 0x30,
  0x2e, 0x30, 0x00, 0x00, 0xaa, 0xfb, 0xff, 0xff, 0x04, 0x00, 0x00, 0x00,
  0x10, 0x00, 0x00, 0x00, 0x31, 0x2e, 0x35, 0x2e, 0x30, 0x00, 0x00, 0x00,
  0x00, 0x00, 0x00, 0x00, 0x00, 0x00, 0x00, 0x00, 0xc4, 0xf6, 0xff, 0xff,
  0xc8, 0xf6, 0xff, 0xff, 0xcc, 0xf6, 0xff, 0xff, 0xd0, 0xf6, 0xff, 0xff,
  0xd6, 0xfb, 0xff, 0xff, 0x04, 0x00, 0x00, 0x00, 0x40, 0x00, 0x00, 0x00,
  0x03, 0xf2, 0x27, 0x3f, 0xfd, 0x5c, 0x6f, 0x3f, 0x97, 0x0d, 0xe0, 0x3e,
  0x77, 0x6c, 0x4c, 0x3f, 0x3c, 0x68, 0x46, 0x3f, 0xf7, 0x70, 0x00, 0xbf,
  0x4b, 0x09, 0xbd, 0x3e, 0xae, 0x45, 0x9f, 0x3e, 0x26, 0x2c, 0x4a, 0x3f,
  0x29, 0x3a, 0xd3, 0x3e, 0xe2, 0x0f, 0x76, 0xbe, 0xa8, 0x4d, 0x29, 0xbf,
  0x3a, 0x80, 0x29, 0x3e, 0xef, 0xb8, 0x6d, 0x3f, 0x38, 0xbe, 0x18, 0xbf,
  0x3c, 0x03, 0xfe, 0x3d, 0x22, 0xfc, 0xff, 0xff, 0x04, 0x00, 0x00, 0x00,
  0x80, 0x00, 0x00, 0x00, 0xdd, 0x04, 0xc8, 0xbe, 0x0d, 0x17, 0x49, 0x3f,
  0x72, 0x76, 0x80, 0x3f, 0x03, 0xef, 0x99, 0xbf, 0x10, 0xa4, 0xc3, 0xbe,
  0x4d, 0xe4, 0xd2, 0x3e, 0xc5, 0x60, 0x95, 0x3c, 0xfe, 0xee, 0x44, 0x3f,
  0xb2, 0x98, 0x45, 0x3f, 0x7f, 0x44, 0x6c, 0xbd, 0x8c, 0xc5, 0xf1, 0x3e,
  0x5a, 0x1c, 0x12, 0xbf, 0xb2, 0x65, 0x4b, 0xbf, 0xda, 0x78, 0x28, 0x3e,
  0xb5, 0x8d, 0x4f, 0xbf, 0x9a, 0xb3, 0xdc, 0x3e, 0x53, 0x43, 0x98, 0x3e,
  0xdd, 0x5a, 0x95, 0xbe, 0x21, 0x95, 0xbb, 0xbe, 0x74, 0x84, 0x40, 0x3f,
  0x02, 0x1a, 0xca, 0x3e, 0x35, 0x25, 0x1f, 0xbf, 0x05, 0xce, 0x0f, 0x3f,
  0x10, 0x99, 0x57, 0xbf, 0xee, 0xbd, 0x90, 0xbe, 0xe4, 0x1b, 0x13, 0x3f,
  0xbe, 0xf9, 0x82, 0x3e, 0x76, 0xb8, 0x53, 0x3f, 0x4a, 0x58, 0xd1, 0x3d,
  0x95, 0x71, 0x9a, 0xbf, 0x5d, 0x5a, 0x45, 0x3f, 0xd5, 0xf8, 0x3b, 0xbf,
  0xae, 0xfc, 0xff, 0xff, 0x04, 0x00, 0x00, 0x00, 0x00, 0x02, 0x00, 0x00,
  0xbd, 0x1c, 0x11, 0x3d, 0x40, 0x05, 0xb7, 0xbc, 0xff, 0x40, 0x91, 0xbe,
  0xd9, 0x00, 0xee, 0x3e, 0x34, 0x92, 0xe6, 0x3e, 0x30, 0x07, 0x88, 0xbd,
  0x22, 0xe0, 0x0f, 0xbe, 0x85, 0x40, 0x88, 0xbe, 0x34, 0x8a, 0xad, 0xbe,
  0xb3, 0x35, 0x8a, 0x3e, 0xb4, 0x58, 0xd9, 0xbe, 0xd8, 0x66, 0x34, 0xbe,
  0x8f, 0x36, 0xbf, 0x3e, 0xc8, 0x2d, 0xda, 0xbe, 0xa8, 0x69, 0x60, 0xbe,
  0x08, 0x0d, 0xe6, 0xbe, 0xf4, 0xdc, 0x6d, 0x3f, 0xe8, 0xb0, 0xbf, 0xbe,
  0xc8, 0xa7, 0x5d, 0x3f, 0x70, 0x97, 0xc1, 0x3f, 0x18, 0x97, 0x89, 0xbe,
  0x29, 0x3d, 0x11, 0xbe, 0xb8, 0x6e, 0x60, 0x3f, 0x5f, 0x4a, 0xfc, 0x3e,
  0x1e, 0xed, 0x43, 0xbf, 0xa3, 0xba, 0x63, 0x3f, 0xcb, 0xa3, 0x95, 0xbd,
  0x7f, 0xb5, 0x21, 0x3d, 0x75, 0xc5, 0x82, 0x3e, 0xc5, 0x5d, 0x70, 0x3f,
  0xa5, 0xc6, 0xc3, 0xbe, 0xcb, 0x88, 0xf2, 0xbe, 0x14, 0x68, 0xed, 0xbe,
  0xb8, 0xb8, 0x63, 0x3e, 0x64, 0x2a, 0xa2, 0x3e, 0x30, 0x23, 0x33, 0x3e,
  0x60, 0x4b, 0x64, 0xbe, 0xc0, 0xb7, 0x9c, 0xbc, 0x78, 0xc0, 0x1a, 0x3e,
  0x0c, 0x23, 0x84, 0xbe, 0xfc, 0x85, 0xef, 0xbe, 0x70, 0xac, 0x5f, 0xbe,
  0xf4, 0x9d, 0x95, 0xbe, 0xd8, 0x04, 0xef, 0x3e, 0x00, 0x23, 0x64, 0xbe,
  0x50, 0xc0, 0x9d, 0xbd, 0x78, 0x02, 0x66, 0xbe, 0x90, 0x5d, 0x85, 0xbe,
  0xc3, 0x09, 0x52, 0x3f, 0x34, 0x58, 0x4c, 0xbf, 0x2c, 0xb1, 0x21, 0x3f,
  0x67, 0x47, 0xc2, 0x3e, 0x10, 0x24, 0xde, 0xbe, 0xd8, 0xb8, 0x58, 0x3e,
  0x75, 0x9b, 0xab, 0x3e, 0x6b, 0xc8, 0x27, 0x3f, 0xee, 0xea, 0xaa, 0x3f,
  0xb2, 0x94, 0x20, 0x3f, 0x66, 0x2f, 0xe3, 0xbe, 0x40, 0x87, 0xa3, 0xbd,
  0x9d, 0x57, 0x19, 0x3f, 0xc2, 0x41, 0x90, 0x3e, 0x20, 0x70, 0x1e, 0xbe,
  0x13, 0x85, 0x00, 0xbf, 0xaf, 0x85, 0xc3, 0x3d, 0xe6, 0x06, 0x2a, 0xbe,
  0x3b, 0xfd, 0xc7, 0xbe, 0x52, 0xa4, 0x36, 0xbc, 0xae, 0x1e, 0x90, 0x3d,
  0x87, 0xca, 0xa3, 0x3e, 0x69, 0xcd, 0xf1, 0xbe, 0x0d, 0xba, 0x80, 0x3d,
  0x1c, 0xea, 0x43, 0x3e, 0x33, 0x0f, 0x80, 0x3d, 0xbb, 0x03, 0x87, 0x3e,
  0x38, 0xb3, 0x0a, 0xbd, 0xdd, 0xdd, 0x49, 0x3e, 0x9c, 0x58, 0x30, 0x3e,
  0x86, 0xdb, 0x17, 0x3e, 0xba, 0x7c, 0x38, 0xbe, 0xd8, 0x53, 0xa9, 0x3e,
  0xce, 0xb8, 0xa0, 0x3d, 0x0d, 0xee, 0xcf, 0x3e, 0x3a, 0x93, 0x07, 0x40,
  0x5e, 0xe8, 0xb6, 0x3e, 0xbe, 0x9d, 0xc8, 0xbf, 0xb4, 0x87, 0xe2, 0x3e,
  0x7d, 0x65, 0xb1, 0x3e, 0x3b, 0xf7, 0xd9, 0x3e, 0x38, 0xa7, 0x21, 0xbe,
  0x95, 0x46, 0x34, 0xbf, 0x85, 0xdc, 0x0b, 0xc0, 0x81, 0x28, 0xb0, 0x3e,
  0x08, 0x94, 0xf2, 0x3f, 0x5f, 0x1a, 0x23, 0xc0, 0xfb, 0xfa, 0xb2, 0xbe,
  0x9e, 0xfe, 0x41, 0x3e, 0xd8, 0xc2, 0xaa, 0xbe, 0x9e, 0xa9, 0x70, 0x3e,
  0xdd, 0x0a, 0x69, 0x3e, 0x5c, 0xae, 0x8a, 0xbe, 0x84, 0x7a, 0x86, 0x3e,
  0xc8, 0xca, 0x0a, 0x3d, 0x5e, 0x27, 0x88, 0xbd, 0xec, 0x00, 0xfd, 0xbe,
  0x92, 0xa7, 0xf7, 0xbe, 0xd8, 0x3c, 0x5d, 0xbe, 0x24, 0x2a, 0xca, 0x3e,
  0x9c, 0xc0, 0xc8, 0x3c, 0xad, 0xe5, 0xfe, 0xbe, 0x18, 0x60, 0x2b, 0x3e,
  0x20, 0x1b, 0x27, 0xbe, 0x36, 0x97, 0x58, 0xbf, 0x02, 0xef, 0x35, 0x3f,
  0xb5, 0x87, 0x0a, 0xbe, 0x48, 0x99, 0xac, 0x3e, 0xde, 0x59, 0x40, 0x3f,
  0x94, 0x25, 0xc3, 0xbc, 0xa1, 0xa4, 0x17, 0xbf, 0x2e, 0xc3, 0x8d, 0xbe,
  0x9a, 0x70, 0x8b, 0x3f, 0x07, 0x54, 0x4d, 0xbf, 0x7d, 0x86, 0x31, 0x3f,
  0x27, 0x8c, 0xa2, 0x3e, 0xec, 0x04, 0x40, 0x3e, 0x47, 0x10, 0x8a, 0x3f,
  0xfd, 0xcf, 0x4e, 0x3f, 0x8c, 0xef, 0x25, 0x3f, 0xba, 0xfe, 0xff, 0xff,
  0x04, 0x00, 0x00, 0x00, 0x60, 0x00, 0x00, 0x00, 0x80, 0x05, 0xea, 0xbe,
  0xd3, 0x5a, 0x23, 0x3f, 0x88, 0x12, 0x0b, 0x3e, 0x25, 0xd9, 0x0a, 0x3f,
  0x40, 0x1e, 0x16, 0x3f, 0xa4, 0xa9, 0x4d, 0x3d, 0xf3, 0x03, 0xa1, 0x3e,
  0xae, 0xb3, 0xf3, 0xbf, 0x69, 0xde, 0x23, 0xbf, 0x28, 0x3c, 0xbe, 0xbf,
  0x61, 0x43, 0x05, 0x3f, 0xbf, 0xaa, 0xf1, 0xbe, 0x50, 0xe2, 0xd6, 0x3e,
  0x6b, 0x07, 0xbf, 0x3f, 0x78, 0x91, 0x0f, 0x3f, 0xb0, 0x88, 0xcf, 0xbd,
  0x91, 0xc1, 0xa3, 0x3e, 0x25, 0xb4, 0xf3, 0xbd, 0x2a, 0x20, 0xd4, 0xbe,
  0x8f, 0x88, 0x1b, 0xbe, 0x4c, 0x33, 0xa4, 0x3d, 0x24, 0xbd, 0x38, 0xc0,
  0x78, 0x76, 0x35, 0x3f, 0x0f, 0x91, 0x3c, 0x3f, 0x26, 0xff, 0xff, 0xff,
  0x04, 0x00, 0x00, 0x00, 0x0c, 0x00, 0x00, 0x00, 0xde, 0x93, 0x2c, 0xbf,
  0xa5, 0x9f, 0x18, 0xbf, 0x3f, 0xac, 0x77, 0x3f, 0x3e, 0xff, 0xff, 0xff,
  0x04, 0x00, 0x00, 0x00, 0x20, 0x00, 0x00, 0x00, 0xca, 0x34, 0xca, 0xbc,
  0x75, 0x77, 0x70, 0x3e, 0x00, 0x00, 0x00, 0x00, 0x66, 0xc1, 0x89, 0x3e,
  0xbb, 0xb1, 0xc6, 0xbd, 0xad, 0x77, 0x17, 0x3f, 0x23, 0xd8, 0x31, 0xbd,
  0x22, 0xca, 0x0b, 0x3f, 0x68, 0xfa, 0xff, 0xff, 0x6c, 0xfa, 0xff, 0xff,
  0x0f, 0x00, 0x00, 0x00, 0x4d, 0x4c, 0x49, 0x52, 0x20, 0x43, 0x6f, 0x6e,
  0x76, 0x65, 0x72, 0x74, 0x65, 0x64, 0x2e, 0x00, 0x01, 0x00, 0x00, 0x00,
  0x14, 0x00, 0x00, 0x00, 0x00, 0x00, 0x0e, 0x00, 0x18, 0x00, 0x14, 0x00,
  0x10, 0x00, 0x0c, 0x00, 0x08, 0x00, 0x04, 0x00, 0x0e, 0x00, 0x00, 0x00,
  0x14, 0x00, 0x00, 0x00, 0x1c, 0x00, 0x00, 0x00, 0x34, 0x01, 0x00, 0x00,
  0x38, 0x01, 0x00, 0x00, 0x3c, 0x01, 0x00, 0x00, 0x04, 0x00, 0x00, 0x00,
  0x6d, 0x61, 0x69, 0x6e, 0x00, 0x00, 0x00, 0x00, 0x04, 0x00, 0x00, 0x00,
  0xdc, 0x00, 0x00, 0x00, 0x94, 0x00, 0x00, 0x00, 0x50, 0x00, 0x00, 0x00,
  0x14, 0x00, 0x00, 0x00, 0x00, 0x00, 0x0e, 0x00, 0x1a, 0x00, 0x14, 0x00,
  0x10, 0x00, 0x0c, 0x00, 0x0b, 0x00, 0x04, 0x00, 0x0e, 0x00, 0x00, 0x00,
  0x1c, 0x00, 0x00, 0x00, 0x00, 0x00, 0x00, 0x09, 0x1c, 0x00, 0x00, 0x00,
  0x20, 0x00, 0x00, 0x00, 0x01, 0x00, 0x00, 0x00, 0x00, 0x00, 0x06, 0x00,
  0x08, 0x00, 0x04, 0x00, 0x06, 0x00, 0x00, 0x00, 0x00, 0x00, 0x80, 0x3f,
  0x01, 0x00, 0x00, 0x00, 0x0a, 0x00, 0x00, 0x00, 0x01, 0x00, 0x00, 0x00,
  0x09, 0x00, 0x00, 0x00, 0xce, 0xff, 0xff, 0xff, 0x10, 0x00, 0x00, 0x00,
  0x00, 0x00, 0x00, 0x08, 0x0c, 0x00, 0x00, 0x00, 0x10, 0x00, 0x00, 0x00,
  0x30, 0xfb, 0xff, 0xff, 0x01, 0x00, 0x00, 0x00, 0x09, 0x00, 0x00, 0x00,
  0x03, 0x00, 0x00, 0x00, 0x08, 0x00, 0x00, 0x00, 0x03, 0x00, 0x00, 0x00,
  0x02, 0x00, 0x00, 0x00, 0x00, 0x00, 0x0e, 0x00, 0x14, 0x00, 0x00, 0x00,
  0x10, 0x00, 0x0c, 0x00, 0x0b, 0x00, 0x04, 0x00, 0x0e, 0x00, 0x00, 0x00,
  0x10, 0x00, 0x00, 0x00, 0x00, 0x00, 0x00, 0x08, 0x10, 0x00, 0x00, 0x00,
  0x14, 0x00, 0x00, 0x00, 0xba, 0xff, 0xff, 0xff, 0x00, 0x00, 0x00, 0x01,
  0x01, 0x00, 0x00, 0x00, 0x08, 0x00, 0x00, 0x00, 0x03, 0x00, 0x00, 0x00,
  0x07, 0x00, 0x00, 0x00, 0x04, 0x00, 0x00, 0x00, 0x01, 0x00, 0x00, 0x00,
  0x00, 0x00, 0x0e, 0x00, 0x16, 0x00, 0x00, 0x00, 0x10, 0x00, 0x0c, 0x00,
  0x0b, 0x00, 0x04, 0x00, 0x0e, 0x00, 0x00, 0x00, 0x18, 0x00, 0x00, 0x00,
  0x00, 0x00, 0x00, 0x08, 0x18, 0x00, 0x00, 0x00, 0x1c, 0x00, 0x00, 0x00,
  0x00, 0x00, 0x06, 0x00, 0x08, 0x00, 0x07, 0x00, 0x06, 0x00, 0x00, 0x00,
  0x00, 0x00, 0x00, 0x01, 0x01, 0x00, 0x00, 0x00, 0x07, 0x00, 0x00, 0x00,
  0x03, 0x00, 0x00, 0x00, 0x00, 0x00, 0x00, 0x00, 0x05, 0x00, 0x00, 0x00,
  0x06, 0x00, 0x00, 0x00, 0x01, 0x00, 0x00, 0x00, 0x0a, 0x00, 0x00, 0x00,
  0x01, 0x00, 0x00, 0x00, 0x00, 0x00, 0x00, 0x00, 0x0b, 0x00, 0x00, 0x00,
  0xe8, 0x03, 0x00, 0x00, 0x94, 0x03, 0x00, 0x00, 0x40, 0x03, 0x00, 0x00,
  0x00, 0x03, 0x00, 0x00, 0xc0, 0x02, 0x00, 0x00, 0x74, 0x02, 0x00, 0x00,
  0x10, 0x02, 0x00, 0x00, 0x7c, 0x01, 0x00, 0x00, 0xe0, 0x00, 0x00, 0x00,
  0x60, 0x00, 0x00, 0x00, 0x04, 0x00, 0x00, 0x00, 0x5a, 0xfc, 0xff, 0xff,
  0x00, 0x00, 0x00, 0x01, 0x14, 0x00, 0x00, 0x00, 0x1c, 0x00, 0x00, 0x00,
  0x1c, 0x00, 0x00, 0x00, 0x0b, 0x00, 0x00, 0x00, 0x34, 0x00, 0x00, 0x00,
  0x02, 0x00, 0x00, 0x00, 0xff, 0xff, 0xff, 0xff, 0x03, 0x00, 0x00, 0x00,
  0x44, 0xfc, 0xff, 0xff, 0x1b, 0x00, 0x00, 0x00, 0x53, 0x74, 0x61, 0x74,
  0x65, 0x66, 0x75, 0x6c, 0x50, 0x61, 0x72, 0x74, 0x69, 0x74, 0x69, 0x6f,
  0x6e, 0x65, 0x64, 0x43, 0x61, 0x6c, 0x6c, 0x5f, 0x31, 0x3a, 0x30, 0x00,
  0x02, 0x00, 0x00, 0x00, 0x01, 0x00, 0x00, 0x00, 0x03, 0x00, 0x00, 0x00,
  0xb2, 0xfc, 0xff, 0xff, 0x00, 0x00, 0x00, 0x01, 0x14, 0x00, 0x00, 0x00,
  0x1c, 0x00, 0x00, 0x00, 0x1c, 0x00, 0x00, 0x00, 0x0a, 0x00, 0x00, 0x00,
  0x58, 0x00, 0x00, 0x00, 0x02, 0x00, 0x00, 0x00, 0xff, 0xff, 0xff, 0xff,
  0x03, 0x00, 0x00, 0x00, 0x9c, 0xfc, 0xff, 0xff, 0x3c, 0x00, 0x00, 0x00,
  0x73, 0x65, 0x71, 0x75, 0x65, 0x6e, 0x74, 0x69, 0x61, 0x6c, 0x5f, 0x31,
  0x2f, 0x64, 0x65, 0x6e, 0x73, 0x65, 0x5f, 0x32, 0x5f, 0x31, 0x2f, 0x4d,
  0x61, 0x74, 0x4d, 0x75, 0x6c, 0x3b, 0x73, 0x65, 0x71, 0x75, 0x65, 0x6e,
  0x74, 0x69, 0x61, 0x6c, 0x5f, 0x31, 0x2f, 0x64, 0x65, 0x6e, 0x73, 0x65,
  0x5f, 0x32, 0x5f, 0x31, 0x2f, 0x42, 0x69, 0x61, 0x73, 0x41, 0x64, 0x64,
  0x00, 0x00, 0x00, 0x00, 0x02, 0x00, 0x00, 0x00, 0x01, 0x00, 0x00, 0x00,
  0x03, 0x00, 0x00, 0x00, 0x2e, 0xfd, 0xff, 0xff, 0x00, 0x00, 0x00, 0x01,
  0x14, 0x00, 0x00, 0x00, 0x1c, 0x00, 0x00, 0x00, 0x1c, 0x00, 0x00, 0x00,
  0x09, 0x00, 0x00, 0x00, 0x74, 0x00, 0x00, 0x00, 0x02, 0x00, 0x00, 0x00,
  0xff, 0xff, 0xff, 0xff, 0x08, 0x00, 0x00, 0x00, 0x18, 0xfd, 0xff, 0xff,
  0x58, 0x00, 0x00, 0x00, 0x73, 0x65, 0x71, 0x75, 0x65, 0x6e, 0x74, 0x69,
  0x61, 0x6c, 0x5f, 0x31, 0x2f, 0x64, 0x65, 0x6e, 0x73, 0x65, 0x5f, 0x31,
  0x5f, 0x32, 0x2f, 0x4d, 0x61, 0x74, 0x4d, 0x75, 0x6c, 0x3b, 0x73, 0x65,
  0x71, 0x75, 0x65, 0x6e, 0x74, 0x69, 0x61, 0x6c, 0x5f, 0x31, 0x2f, 0x64,
  0x65, 0x6e, 0x73, 0x65, 0x5f, 0x31, 0x5f, 0x32, 0x2f, 0x52, 0x65, 0x6c,
  0x75, 0x3b, 0x73, 0x65, 0x71, 0x75, 0x65, 0x6e, 0x74, 0x69, 0x61, 0x6c,
  0x5f, 0x31, 0x2f, 0x64, 0x65, 0x6e, 0x73, 0x65, 0x5f, 0x31, 0x5f, 0x32,
  0x2f, 0x42, 0x69, 0x61, 0x73, 0x41, 0x64, 0x64, 0x00, 0x00, 0x00, 0x00,
  0x02, 0x00, 0x00, 0x00, 0x01, 0x00, 0x00, 0x00, 0x08, 0x00, 0x00, 0x00,
  0xc6, 0xfd, 0xff, 0xff, 0x00, 0x00, 0x00, 0x01, 0x14, 0x00, 0x00, 0x00,
  0x1c, 0x00, 0x00, 0x00, 0x1c, 0x00, 0x00, 0x00, 0x08, 0x00, 0x00, 0x00,
  0x6c, 0x00, 0x00, 0x00, 0x02, 0x00, 0x00, 0x00, 0xff, 0xff, 0xff, 0xff,
  0x10, 0x00, 0x00, 0x00, 0xb0, 0xfd, 0xff, 0xff, 0x52, 0x00, 0x00, 0x00,
  0x73, 0x65, 0x71, 0x75, 0x65, 0x6e, 0x74, 0x69, 0x61, 0x6c, 0x5f, 0x31,
  0x2f, 0x64, 0x65, 0x6e, 0x73, 0x65, 0x5f, 0x31, 0x2f, 0x4d, 0x61, 0x74,
  0x4d, 0x75, 0x6c, 0x3b, 0x73, 0x65, 0x71, 0x75, 0x65, 0x6e, 0x74, 0x69,
  0x61, 0x6c, 0x5f, 0x31, 0x2f, 0x64, 0x65, 0x6e, 0x73, 0x65, 0x5f, 0x31,
  0x2f, 0x52, 0x65, 0x6c, 0x75, 0x3b, 0x73, 0x65, 0x71, 0x75, 0x65, 0x6e,
  0x74, 0x69, 0x61, 0x6c, 0x5f, 0x31, 0x2f, 0x64, 0x65, 0x6e, 0x73, 0x65,
  0x5f, 0x31, 0x2f, 0x42, 0x69, 0x61, 0x73, 0x41, 0x64, 0x64, 0x00, 0x00,
  0x02, 0x00, 0x00, 0x00, 0x01, 0x00, 0x00, 0x00, 0x10, 0x00, 0x00, 0x00,
  0xa6, 0xfe, 0xff, 0xff, 0x00, 0x00, 0x00, 0x01, 0x10, 0x00, 0x00, 0x00,
  0x10, 0x00, 0x00, 0x00, 0x07, 0x00, 0x00, 0x00, 0x44, 0x00, 0x00, 0x00,
  0x30, 0xfe, 0xff, 0xff, 0x36, 0x00, 0x00, 0x00, 0x73, 0x65, 0x71, 0x75,
  0x65, 0x6e, 0x74, 0x69, 0x61, 0x6c, 0x5f, 0x31, 0x2f, 0x64, 0x65, 0x6e,
  0x73, 0x65, 0x5f, 0x31, 0x2f, 0x52, 0x65, 0x6c, 0x75, 0x3b, 0x73, 0x65,
  0x71, 0x75, 0x65, 0x6e, 0x74, 0x69, 0x61, 0x6c, 0x5f, 0x31, 0x2f, 0x64,
  0x65, 0x6e, 0x73, 0x65, 0x5f, 0x31, 0x2f, 0x42, 0x69, 0x61, 0x73, 0x41,
  0x64, 0x64, 0x00, 0x00, 0x01, 0x00, 0x00, 0x00, 0x10, 0x00, 0x00, 0x00,
  0x06, 0xff, 0xff, 0xff, 0x00, 0x00, 0x00, 0x01, 0x10, 0x00, 0x00, 0x00,
  0x10, 0x00, 0x00, 0x00, 0x06, 0x00, 0x00, 0x00, 0x28, 0x00, 0x00, 0x00,
  0x90, 0xfe, 0xff, 0xff, 0x1b, 0x00, 0x00, 0x00, 0x73, 0x65, 0x71, 0x75,
  0x65, 0x6e, 0x74, 0x69, 0x61, 0x6c, 0x5f, 0x31, 0x2f, 0x64, 0x65, 0x6e,
  0x73, 0x65, 0x5f, 0x31, 0x2f, 0x4d, 0x61, 0x74, 0x4d, 0x75, 0x6c, 0x00,
  0x02, 0x00, 0x00, 0x00, 0x10, 0x00, 0x00, 0x00, 0x02, 0x00, 0x00, 0x00,
  0x4e, 0xff, 0xff, 0xff, 0x00, 0x00, 0x00, 0x01, 0x10, 0x00, 0x00, 0x00,
  0x10, 0x00, 0x00, 0x00, 0x05, 0x00, 0x00, 0x00, 0x1c, 0x00, 0x00, 0x00,
  0xd8, 0xfe, 0xff, 0xff, 0x0f, 0x00, 0x00, 0x00, 0x61, 0x72, 0x69, 0x74,
  0x68, 0x2e, 0x63, 0x6f, 0x6e, 0x73, 0x74, 0x61, 0x6e, 0x74, 0x33, 0x00,
  0x02, 0x00, 0x00, 0x00, 0x08, 0x00, 0x00, 0x00, 0x10, 0x00, 0x00, 0x00,
  0x8a, 0xff, 0xff, 0xff, 0x00, 0x00, 0x00, 0x01, 0x10, 0x00, 0x00, 0x00,
  0x10, 0x00, 0x00, 0x00, 0x04, 0x00, 0x00, 0x00, 0x1c, 0x00, 0x00, 0x00,
  0x14, 0xff, 0xff, 0xff, 0x0f, 0x00, 0x00, 0x00, 0x61, 0x72, 0x69, 0x74,
  0x68, 0x2e, 0x63, 0x6f, 0x6e, 0x73, 0x74, 0x61, 0x6e, 0x74, 0x32, 0x00,
  0x02, 0x00, 0x00, 0x00, 0x03, 0x00, 0x00, 0x00, 0x08, 0x00, 0x00, 0x00,
  0xc6, 0xff, 0xff, 0xff, 0x00, 0x00, 0x00, 0x01, 0x10, 0x00, 0x00, 0x00,
  0x10, 0x00, 0x00, 0x00, 0x03, 0x00, 0x00, 0x00, 0x1c, 0x00, 0x00, 0x00,
  0x50, 0xff, 0xff, 0xff, 0x0f, 0x00, 0x00, 0x00, 0x61, 0x72, 0x69, 0x74,
  0x68, 0x2e, 0x63, 0x6f, 0x6e, 0x73, 0x74, 0x61, 0x6e, 0x74, 0x31, 0x00,
  0x01, 0x00, 0x00, 0x00, 0x03, 0x00, 0x00, 0x00, 0x00, 0x00, 0x16, 0x00,
  0x18, 0x00, 0x14, 0x00, 0x00, 0x00, 0x10, 0x00, 0x0c, 0x00, 0x08, 0x00,
  0x00, 0x00, 0x00, 0x00, 0x00, 0x00, 0x07, 0x00, 0x16, 0x00, 0x00, 0x00,
  0x00, 0x00, 0x00, 0x01, 0x10, 0x00, 0x00, 0x00, 0x10, 0x00, 0x00, 0x00,
  0x02, 0x00, 0x00, 0x00, 0x1c, 0x00, 0x00, 0x00, 0xa0, 0xff, 0xff, 0xff,
  0x0e, 0x00, 0x00, 0x00, 0x61, 0x72, 0x69, 0x74, 0x68, 0x2e, 0x63, 0x6f,
  0x6e, 0x73, 0x74, 0x61, 0x6e, 0x74, 0x00, 0x00, 0x01, 0x00, 0x00, 0x00,
  0x08, 0x00, 0x00, 0x00, 0x00, 0x00, 0x16, 0x00, 0x1c, 0x00, 0x18, 0x00,
  0x00, 0x00, 0x14, 0x00, 0x10, 0x00, 0x0c, 0x00, 0x00, 0x00, 0x00, 0x00,
  0x08, 0x00, 0x07, 0x00, 0x16, 0x00, 0x00, 0x00, 0x00, 0x00, 0x00, 0x01,
  0x14, 0x00, 0x00, 0x00, 0x20, 0x00, 0x00, 0x00, 0x20, 0x00, 0x00, 0x00,
  0x01, 0x00, 0x00, 0x00, 0x3c, 0x00, 0x00, 0x00, 0x02, 0x00, 0x00, 0x00,
  0xff, 0xff, 0xff, 0xff, 0x02, 0x00, 0x00, 0x00, 0x04, 0x00, 0x04, 0x00,
  0x04, 0x00, 0x00, 0x00, 0x1e, 0x00, 0x00, 0x00, 0x73, 0x65, 0x72, 0x76,
  0x69, 0x6e, 0x67, 0x5f, 0x64, 0x65, 0x66, 0x61, 0x75, 0x6c, 0x74, 0x5f,
  0x6b, 0x65, 0x72, 0x61, 0x73, 0x5f, 0x74, 0x65, 0x6e, 0x73, 0x6f, 0x72,
  0x3a, 0x30, 0x00, 0x00, 0x02, 0x00, 0x00, 0x00, 0x01, 0x00, 0x00, 0x00,
  0x02, 0x00, 0x00, 0x00, 0x02, 0x00, 0x00, 0x00, 0x20, 0x00, 0x00, 0x00,
  0x04, 0x00, 0x00, 0x00, 0xf4, 0xff, 0xff, 0xff, 0x19, 0x00, 0x00, 0x00,
  0x00, 0x00, 0x00, 0x19, 0x0c, 0x00, 0x0c, 0x00, 0x0b, 0x00, 0x00, 0x00,
  0x00, 0x00, 0x04, 0x00, 0x0c, 0x00, 0x00, 0x00, 0x09, 0x00, 0x00, 0x00,
  0x00, 0x00, 0x00, 0x09,
};

#endif // MODELO_PREDATOR_H
