#ifndef MODELO_PREDATOR_H
#define MODELO_PREDATOR_H

// Tamanho do modelo: 2964 bytes
const unsigned int modelo_tflite_len = 2964;

const unsigned char modelo_tflite[] __attribute__((aligned(16))) = {
  0x1c, 0x00, 0x00, 0x00, 0x54, 0x46, 0x4c, 0x33, 0x14, 0x00, 0x20, 0x00,
  0x1c, 0x00, 0x18, 0x00, 0x14, 0x00, 0x10, 0x00, 0x0c, 0x00, 0x00, 0x00,
  0x08, 0x00, 0x04, 0x00, 0x14, 0x00, 0x00, 0x00, 0x1c, 0x00, 0x00, 0x00,
  0x98, 0x00, 0x00, 0x00, 0xf0, 0x00, 0x00, 0x00, 0x5c, 0x05, 0x00, 0x00,
  0x6c, 0x05, 0x00, 0x00, 0x30, 0x0b, 0x00, 0x00, 0x03, 0x00, 0x00, 0x00,
  0x01, 0x00, 0x00, 0x00, 0x10, 0x00, 0x00, 0x00, 0x00, 0x00, 0x0a, 0x00,
  0x10, 0x00, 0x0c, 0x00, 0x08, 0x00, 0x04, 0x00, 0x0a, 0x00, 0x00, 0x00,
  0x0c, 0x00, 0x00, 0x00, 0x1c, 0x00, 0x00, 0x00, 0x3c, 0x00, 0x00, 0x00,
  0x0f, 0x00, 0x00, 0x00, 0x73, 0x65, 0x72, 0x76, 0x69, 0x6e, 0x67, 0x5f,
  0x64, 0x65, 0x66, 0x61, 0x75, 0x6c, 0x74, 0x00, 0x01, 0x00, 0x00, 0x00,
  0x04, 0x00, 0x00, 0x00, 0x90, 0xff, 0xff, 0xff, 0x0a, 0x00, 0x00, 0x00,
  0x04, 0x00, 0x00, 0x00, 0x08, 0x00, 0x00, 0x00, 0x6f, 0x75, 0x74, 0x70,
  0x75, 0x74, 0x5f, 0x30, 0x00, 0x00, 0x00, 0x00, 0x01, 0x00, 0x00, 0x00,
  0x04, 0x00, 0x00, 0x00, 0x8a, 0xfa, 0xff, 0xff, 0x04, 0x00, 0x00, 0x00,
  0x0c, 0x00, 0x00, 0x00, 0x6b, 0x65, 0x72, 0x61, 0x73, 0x5f, 0x74, 0x65,
  0x6e, 0x73, 0x6f, 0x72, 0x00, 0x00, 0x00, 0x00, 0x02, 0x00, 0x00, 0x00,
  0x34, 0x00, 0x00, 0x00, 0x04, 0x00, 0x00, 0x00, 0xdc, 0xff, 0xff, 0xff,
  0x0d, 0x00, 0x00, 0x00, 0x04, 0x00, 0x00, 0x00, 0x13, 0x00, 0x00, 0x00,
  0x43, 0x4f, 0x4e, 0x56, 0x45, 0x52, 0x53, 0x49, 0x4f, 0x4e, 0x5f, 0x4d,
  0x45, 0x54, 0x41, 0x44, 0x41, 0x54, 0x41, 0x00, 0x08, 0x00, 0x0c, 0x00,
  0x08, 0x00, 0x04, 0x00, 0x08, 0x00, 0x00, 0x00, 0x0c, 0x00, 0x00, 0x00,
  0x04, 0x00, 0x00, 0x00, 0x13, 0x00, 0x00, 0x00, 0x6d, 0x69, 0x6e, 0x5f,
  0x72, 0x75, 0x6e, 0x74, 0x69, 0x6d, 0x65, 0x5f, 0x76, 0x65, 0x72, 0x73,
  0x69, 0x6f, 0x6e, 0x00, 0x0e, 0x00, 0x00, 0x00, 0x68, 0x04, 0x00, 0x00,
  0x60, 0x04, 0x00, 0x00, 0xf0, 0x03, 0x00, 0x00, 0xe0, 0x01, 0x00, 0x00,
  0xc4, 0x01, 0x00, 0x00, 0x94, 0x01, 0x00, 0x00, 0x44, 0x01, 0x00, 0x00,
  0xb4, 0x00, 0x00, 0x00, 0xac, 0x00, 0x00, 0x00, 0xa4, 0x00, 0x00, 0x00,
  0x9c, 0x00, 0x00, 0x00, 0x94, 0x00, 0x00, 0x00, 0x74, 0x00, 0x00, 0x00,
  0x04, 0x00, 0x00, 0x00, 0x3e, 0xfb, 0xff, 0xff, 0x04, 0x00, 0x00, 0x00,
  0x60, 0x00, 0x00, 0x00, 0x10, 0x00, 0x00, 0x00, 0x00, 0x00, 0x00, 0x00,
  0x08, 0x00, 0x0e, 0x00, 0x08, 0x00, 0x04, 0x00, 0x08, 0x00, 0x00, 0x00,
  0x10, 0x00, 0x00, 0x00, 0x24, 0x00, 0x00, 0x00, 0x00, 0x00, 0x06, 0x00,
  0x08, 0x00, 0x04, 0x00, 0x06, 0x00, 0x00, 0x00, 0x04, 0x00, 0x00, 0x00,
  0x00, 0x00, 0x00, 0x00, 0x0c, 0x00, 0x18, 0x00, 0x14, 0x00, 0x10, 0x00,
  0x0c, 0x00, 0x04, 0x00, 0x0c, 0x00, 0x00, 0x00, 0xcb, 0x85, 0xfc, 0x36,
  0x89, 0x5a, 0x65, 0x73, 0x02, 0x00, 0x00, 0x00, 0x02, 0x00, 0x00, 0x00,
  0x04, 0x00, 0x00, 0x00, 0x06, 0x00, 0x00, 0x00, 0x32, 0x2e, 0x31, 0x39,
  0x2e, 0x30, 0x00, 0x00, 0xaa, 0xfb, 0xff, 0xff, 0x04, 0x00, 0x00, 0x00,
  0x10, 0x00, 0x00, 0x00, 0x31, 0x2e, 0x35, 0x2e, 0x30, 0x00, 0x00, 0x00,
  0x00, 0x00, 0x00, 0x00, 0x00, 0x00, 0x00, 0x00, 0xb0, 0xf6, 0xff, 0xff,
  0xb4, 0xf6, 0xff, 0xff, 0xb8, 0xf6, 0xff, 0xff, 0xbc, 0xf6, 0xff, 0xff,
  0xd6, 0xfb, 0xff, 0xff, 0x04, 0x00, 0x00, 0x00, 0x80, 0x00, 0x00, 0x00,
  0x21, 0x07, 0x57, 0x3d, 0x66, 0x5c, 0x02, 0xbf, 0x82, 0xaf, 0xf0, 0x3d,
  0x60, 0xc1, 0x42, 0x3f, 0x92, 0xc5, 0x95, 0xbe, 0x53, 0xe6, 0xc9, 0x3d,
  0x26, 0xc8, 0x42, 0xbf, 0xc0, 0x71, 0xec, 0xbc, 0x4e, 0xe1, 0x90, 0xbe,
  0x58, 0xc8, 0xb7, 0x3e, 0xde, 0x71, 0xb6, 0xbf, 0x46, 0x7b, 0x21, 0xbe,
  0xef, 0x76, 0xad, 0x3f, 0x72, 0x81, 0xea, 0xbe, 0x60, 0xb1, 0xe8, 0x3f,
  0xdc, 0x59, 0x25, 0xbf, 0x16, 0x4c, 0xa3, 0xbe, 0x55, 0x4c, 0x6c, 0x3d,
  0x68, 0xda, 0x8a, 0xbd, 0xd9, 0x59, 0xec, 0x3e, 0xe7, 0x85, 0xaf, 0x3e,
  0x53, 0xe0, 0x28, 0x3f, 0xcf, 0x7e, 0x9f, 0x3f, 0x5a, 0xd9, 0x96, 0xbf,
  0x25, 0x5c, 0xdf, 0xbe, 0xb0, 0x69, 0xdc, 0x3e, 0xba, 0x35, 0x46, 0xbe,
  0x4b, 0xab, 0x0d, 0x3f, 0xf0, 0x75, 0x16, 0xbf, 0xd0, 0x35, 0xbe, 0x3d,
  0x8f, 0x23, 0xb0, 0xbd, 0xb4, 0x0b, 0x2c, 0xbc, 0x62, 0xfc, 0xff, 0xff,
  0x04, 0x00, 0x00, 0x00, 0x40, 0x00, 0x00, 0x00, 0xbd, 0xb6, 0x39, 0x3f,
  0xb1, 0x40, 0x76, 0x3e, 0x52, 0x5a, 0xeb, 0x3d, 0x75, 0x0e, 0x73, 0x3e,
  0xe7, 0x6c, 0x80, 0x3e, 0x00, 0xd4, 0x8c, 0x3f, 0x40, 0xfa, 0x6c, 0xbf,
  0xd9, 0x1b, 0x4c, 0xbe, 0x81, 0x5a, 0x35, 0x3c, 0x65, 0x51, 0xf8, 0x3c,
  0x82, 0xc2, 0xce, 0x3d, 0xa1, 0x12, 0x6b, 0x3f, 0x54, 0x41, 0x27, 0x3e,
  0x3e, 0x6c, 0x8b, 0x3b, 0xae, 0xef, 0x21, 0x3e, 0xd2, 0x97, 0x00, 0xbe,
  0xae, 0xfc, 0xff, 0xff, 0x04, 0x00, 0x00, 0x00, 0x20, 0x00, 0x00, 0x00,
  0xfc, 0xa7, 0x11, 0x3f, 0x55, 0x3b, 0x91, 0xbd, 0x13, 0x45, 0x51, 0x3e,
  0x5f, 0x58, 0xb5, 0x3e, 0xd6, 0xd6, 0xb4, 0xbe, 0x6b, 0x16, 0x53, 0x3e,
  0xd4, 0xfe, 0x30, 0xbb, 0xe5, 0x65, 0x6b, 0x3f, 0xda, 0xfc, 0xff, 0xff,
  0x04, 0x00, 0x00, 0x00, 0x0c, 0x00, 0x00, 0x00, 0xc0, 0xf3, 0xf1, 0xbd,
  0x0d, 0x8c, 0x60, 0x3e, 0xc1, 0x71, 0x2c, 0xbe, 0xf2, 0xfc, 0xff, 0xff,
  0x04, 0x00, 0x00, 0x00, 0x00, 0x02, 0x00, 0x00, 0x6f, 0xa4, 0x8a, 0x3e,
  0xa8, 0x96, 0xf0, 0xbe, 0xb9, 0x6e, 0xb0, 0xbf, 0x28, 0xe7, 0x90, 0xbf,
  0xde, 0x6d, 0x9d, 0xbf, 0x8c, 0x56, 0x04, 0x40, 0x1b, 0x24, 0x64, 0xbf,
  0xed, 0x86, 0x4b, 0xbf, 0x88, 0xbb, 0x45, 0xbf, 0xe7, 0x46, 0xdd, 0xbe,
  0x6d, 0x8a, 0x33, 0x3e, 0xac, 0xfd, 0xa3, 0x3e, 0xde, 0xfd, 0xb4, 0xbe,
  0x22, 0x2e, 0xd6, 0xbe, 0x45, 0xe0, 0x17, 0xbf, 0xc9, 0x83, 0x00, 0xbf,
  0x70, 0x2f, 0xa0, 0xbd, 0x18, 0x87, 0x3a, 0xbe, 0x20, 0x11, 0x88, 0x3d,
  0x91, 0x99, 0xad, 0x3e, 0x1c, 0x26, 0xdb, 0xbd, 0x8c, 0x47, 0xaf, 0xbe,
  0x10, 0x46, 0xd0, 0x3d, 0x50, 0xa5, 0xe5, 0xbe, 0xb4, 0xae, 0x26, 0x3e,
  0x05, 0x31, 0xae, 0x3e, 0xaa, 0x66, 0xad, 0xbe, 0xd0, 0x06, 0x2e, 0x3e,
  0x7c, 0x35, 0x90, 0x3e, 0x30, 0x72, 0x5c, 0x3e, 0xf2, 0x11, 0x0e, 0xbf,
  0x0b, 0xd7, 0xbf, 0x3e, 0xc5, 0xc9, 0x8b, 0x3f, 0x06, 0x52, 0xf0, 0xbe,
  0x44, 0xfd, 0x1b, 0x3e, 0x8f, 0xfb, 0x3e, 0xbe, 0xe5, 0x52, 0xad, 0x3e,
  0xf0, 0xe4, 0x6c, 0xbf, 0x23, 0x59, 0xc4, 0x3e, 0x5a, 0x04, 0x9e, 0x3f,
  0x57, 0x97, 0x41, 0x3e, 0xca, 0x1a, 0x0f, 0xbd, 0x0d, 0xd2, 0xdf, 0xbe,
  0x5a, 0x8c, 0x93, 0x3f, 0x13, 0xf7, 0x7e, 0x3e, 0xcc, 0xe3, 0x3c, 0x3e,
  0x93, 0x43, 0x38, 0xbe, 0x3f, 0xde, 0xe0, 0x3c, 0x92, 0x36, 0x2c, 0x3f,
  0x5e, 0xe6, 0xd9, 0x3d, 0x5f, 0x73, 0x82, 0x3e, 0xdc, 0xfa, 0xc7, 0xbe,
  0xc1, 0xea, 0xd6, 0xbe, 0x62, 0x8c, 0xbb, 0x3f, 0xab, 0x78, 0xfa, 0xbf,
  0x38, 0x1f, 0x51, 0xbf, 0x75, 0x18, 0x84, 0xbd, 0x66, 0x3d, 0x99, 0x3e,
  0x47, 0x25, 0x0a, 0xbf, 0x8b, 0xd4, 0xd8, 0x3e, 0xbe, 0x70, 0x05, 0xbf,
  0x8c, 0x04, 0xdd, 0x3e, 0xba, 0x58, 0x89, 0x3d, 0xa6, 0x8a, 0xd6, 0xbe,
  0xcf, 0xaa, 0xb9, 0xbe, 0x9d, 0x2e, 0xdf, 0x3e, 0xd0, 0xa1, 0xea, 0xbd,
  0x10, 0xe2, 0x24, 0xbe, 0x30, 0xe9, 0x15, 0xbe, 0x64, 0x72, 0x12, 0xc0,
  0xf0, 0x91, 0xa3, 0x3f, 0xfe, 0xdf, 0x5f, 0x3f, 0xc0, 0xf6, 0x78, 0x3e,
  0x60, 0x2d, 0x57, 0xbd, 0x44, 0x37, 0x71, 0xbd, 0xd8, 0x12, 0x51, 0x3f,
  0x50, 0x94, 0xb1, 0x3e, 0x98, 0x11, 0x9c, 0xbe, 0x84, 0x73, 0xaf, 0xbe,
  0xc0, 0x7d, 0xb1, 0xbd, 0x55, 0xe2, 0x3e, 0xbe, 0x21, 0xaa, 0x4f, 0x3f,
  0xee, 0xeb, 0x80, 0x3f, 0xd1, 0xed, 0x0e, 0x3f, 0x2f, 0xa9, 0x20, 0x3f,
  0xf7, 0xd3, 0x28, 0x3e, 0x43, 0xeb, 0x6b, 0x3e, 0x2d, 0x9d, 0x06, 0x3e,
  0x23, 0xff, 0xc9, 0x3e, 0xdd, 0xfb, 0x26, 0x3f, 0x7a, 0x08, 0xb7, 0x3e,
  0xb9, 0x89, 0x9c, 0xbe, 0x00, 0xea, 0x49, 0x3f, 0x15, 0x55, 0x21, 0x3f,
  0xb1, 0x66, 0xce, 0x3e, 0x24, 0x77, 0x71, 0xbe, 0x9a, 0xb6, 0xd8, 0xbe,
  0x60, 0x9b, 0x9c, 0x3f, 0xfa, 0x91, 0x5e, 0x3f, 0x83, 0x89, 0x81, 0x3f,
  0x81, 0xab, 0x55, 0x3f, 0x1a, 0x47, 0x02, 0x40, 0x48, 0xf1, 0xd4, 0x3e,
  0x57, 0xa3, 0xc5, 0xbd, 0xfb, 0xb5, 0x18, 0x3f, 0x40, 0x05, 0x90, 0x3f,
  0x36, 0xd9, 0x88, 0x3e, 0x41, 0xee, 0xd2, 0xbe, 0xff, 0x72, 0x3e, 0x3f,
  0x0b, 0x54, 0xe0, 0x3e, 0x65, 0x33, 0x3c, 0x3f, 0x68, 0xb6, 0x96, 0x3e,
  0x9f, 0xb3, 0x1b, 0x3e, 0x54, 0xa5, 0x34, 0xbf, 0x9e, 0x3c, 0x05, 0xbf,
  0xd1, 0x1c, 0x71, 0xbf, 0x6d, 0xba, 0x80, 0xbf, 0xb1, 0xf0, 0x2a, 0x40,
  0xdf, 0x5e, 0x34, 0xc0, 0xcc, 0x9f, 0xb9, 0xbe, 0x42, 0x00, 0x8f, 0xbf,
  0x3d, 0x6c, 0x80, 0xbf, 0xe6, 0x5e, 0x58, 0xbf, 0xb2, 0xbc, 0x8e, 0x3e,
  0x20, 0xef, 0xa4, 0xbf, 0x6b, 0xf2, 0x54, 0xbf, 0x85, 0x33, 0xee, 0xbe,
  0x58, 0xd4, 0xde, 0xbe, 0xfe, 0xfe, 0xff, 0xff, 0x04, 0x00, 0x00, 0x00,
  0x60, 0x00, 0x00, 0x00, 0x26, 0x3d, 0x39, 0xbe, 0x9d, 0x81, 0x0a, 0xbf,
  0x01, 0xd3, 0xd5, 0xbe, 0xfe, 0xe6, 0x17, 0xbf, 0x28, 0xc2, 0x3b, 0xbf,
  0xa5, 0x48, 0xcd, 0x3e, 0xce, 0x38, 0xaa, 0x3f, 0xd9, 0x79, 0xd7, 0xbf,
  0x1a, 0xe9, 0xd5, 0x3f, 0xd9, 0x87, 0x0e, 0x3f, 0x34, 0xe2, 0xf8, 0x3e,
  0x9e, 0x05, 0x06, 0x40, 0xbf, 0xda, 0x18, 0xc0, 0xc5, 0x24, 0xcd, 0xbe,
  0xda, 0x04, 0x17, 0xbf, 0x25, 0x88, 0x3e, 0x40, 0x76, 0x5c, 0x27, 0xbf,
  0xa6, 0x80, 0x45, 0xbf, 0xfa, 0x98, 0x9c, 0x3f, 0x3b, 0x30, 0xcb, 0xbf,
  0x71, 0xcb, 0x98, 0x3f, 0xa3, 0xe0, 0x26, 0xbf, 0x4f, 0xf0, 0x89, 0xbc,
  0xd2, 0x7a, 0x26, 0xc0, 0x54, 0xfa, 0xff, 0xff, 0x58, 0xfa, 0xff, 0xff,
  0x0f, 0x00, 0x00, 0x00, 0x4d, 0x4c, 0x49, 0x52, 0x20, 0x43, 0x6f, 0x6e,
  0x76, 0x65, 0x72, 0x74, 0x65, 0x64, 0x2e, 0x00, 0x01, 0x00, 0x00, 0x00,
  0x14, 0x00, 0x00, 0x00, 0x00, 0x00, 0x0e, 0x00, 0x18, 0x00, 0x14, 0x00,
  0x10, 0x00, 0x0c, 0x00, 0x08, 0x00, 0x04, 0x00, 0x0e, 0x00, 0x00, 0x00,
  0x14, 0x00, 0x00, 0x00, 0x1c, 0x00, 0x00, 0x00, 0x34, 0x01, 0x00, 0x00,
  0x38, 0x01, 0x00, 0x00, 0x3c, 0x01, 0x00, 0x00, 0x04, 0x00, 0x00, 0x00,
  0x6d, 0x61, 0x69, 0x6e, 0x00, 0x00, 0x00, 0x00, 0x04, 0x00, 0x00, 0x00,
  0xdc, 0x00, 0x00, 0x00, 0x94, 0x00, 0x00, 0x00, 0x50, 0x00, 0x00, 0x00,
  0x14, 0x00, 0x00, 0x00, 0x00, 0x00, 0x0e, 0x00, 0x1a, 0x00, 0x14, 0x00,
  0x10, 0x00, 0x0c, 0x00, 0x0b, 0x00, 0x04, 0x00, 0x0e, 0x00, 0x00, 0x00,
  0x1c, 0x00, 0x00, 0x00, 0x00, 0x00, 0x00, 0x09, 0x1c, 0x00, 0x00, 0x00,
  0x20, 0x00, 0x00, 0x00, 0x01, 0x00, 0x00, 0x00, 0x00, 0x00, 0x06, 0x00,
  0x08, 0x00, 0x04, 0x00, 0x06, 0x00, 0x00, 0x00, 0x00, 0x00, 0x80, 0x3f,
  0x01, 0x00, 0x00, 0x00, 0x0a, 0x00, 0x00, 0x00, 0x01, 0x00, 0x00, 0x00,
  0x09, 0x00, 0x00, 0x00, 0xce, 0xff, 0xff, 0xff, 0x10, 0x00, 0x00, 0x00,
  0x00, 0x00, 0x00, 0x08, 0x0c, 0x00, 0x00, 0x00, 0x10, 0x00, 0x00, 0x00,
  0x1c, 0xfb, 0xff, 0xff, 0x01, 0x00, 0x00, 0x00, 0x09, 0x00, 0x00, 0x00,
  0x03, 0x00, 0x00, 0x00, 0x08, 0x00, 0x00, 0x00, 0x01, 0x00, 0x00, 0x00,
  0x03, 0x00, 0x00, 0x00, 0x00, 0x00, 0x0e, 0x00, 0x14, 0x00, 0x00, 0x00,
  0x10, 0x00, 0x0c, 0x00, 0x0b, 0x00, 0x04, 0x00, 0x0e, 0x00, 0x00, 0x00,
  0x10, 0x00, 0x00, 0x00, 0x00, 0x00, 0x00, 0x08, 0x10, 0x00, 0x00, 0x00,
  0x14, 0x00, 0x00, 0x00, 0xba, 0xff, 0xff, 0xff, 0x00, 0x00, 0x00, 0x01,
  0x01, 0x00, 0x00, 0x00, 0x08, 0x00, 0x00, 0x00, 0x03, 0x00, 0x00, 0x00,
  0x07, 0x00, 0x00, 0x00, 0x02, 0x00, 0x00, 0x00, 0x04, 0x00, 0x00, 0x00,
  0x00, 0x00, 0x0e, 0x00, 0x16, 0x00, 0x00, 0x00, 0x10, 0x00, 0x0c, 0x00,
  0x0b, 0x00, 0x04, 0x00, 0x0e, 0x00, 0x00, 0x00, 0x18, 0x00, 0x00, 0x00,
  0x00, 0x00, 0x00, 0x08, 0x18, 0x00, 0x00, 0x00, 0x1c, 0x00, 0x00, 0x00,
  0x00, 0x00, 0x06, 0x00, 0x08, 0x00, 0x07, 0x00, 0x06, 0x00, 0x00, 0x00,
  0x00, 0x00, 0x00, 0x01, 0x01, 0x00, 0x00, 0x00, 0x07, 0x00, 0x00, 0x00,
  0x03, 0x00, 0x00, 0x00, 0x00, 0x00, 0x00, 0x00, 0x06, 0x00, 0x00, 0x00,
  0x05, 0x00, 0x00, 0x00, 0x01, 0x00, 0x00, 0x00, 0x0a, 0x00, 0x00, 0x00,
  0x01, 0x00, 0x00, 0x00, 0x00, 0x00, 0x00, 0x00, 0x0b, 0x00, 0x00, 0x00,
  0xfc, 0x03, 0x00, 0x00, 0xa4, 0x03, 0x00, 0x00, 0x4c, 0x03, 0x00, 0x00,
  0x10, 0x03, 0x00, 0x00, 0xb4, 0x02, 0x00, 0x00, 0x5c, 0x02, 0x00, 0x00,
  0x10, 0x02, 0x00, 0x00, 0x7c, 0x01, 0x00, 0x00, 0xe0, 0x00, 0x00, 0x00,
  0x60, 0x00, 0x00, 0x00, 0x04, 0x00, 0x00, 0x00, 0x46, 0xfc, 0xff, 0xff,
  0x00, 0x00, 0x00, 0x01, 0x14, 0x00, 0x00, 0x00, 0x1c, 0x00, 0x00, 0x00,
  0x1c, 0x00, 0x00, 0x00, 0x0b, 0x00, 0x00, 0x00, 0x34, 0x00, 0x00, 0x00,
  0x02, 0x00, 0x00, 0x00, 0xff, 0xff, 0xff, 0xff, 0x03, 0x00, 0x00, 0x00,
  0x30, 0xfc, 0xff, 0xff, 0x1b, 0x00, 0x00, 0x00, 0x53, 0x74, 0x61, 0x74,
  0x65, 0x66, 0x75, 0x6c, 0x50, 0x61, 0x72, 0x74, 0x69, 0x74, 0x69, 0x6f,
  0x6e, 0x65, 0x64, 0x43, 0x61, 0x6c, 0x6c, 0x5f, 0x31, 0x3a, 0x30, 0x00,
  0x02, 0x00, 0x00, 0x00, 0x01, 0x00, 0x00, 0x00, 0x03, 0x00, 0x00, 0x00,
  0x9e, 0xfc, 0xff, 0xff, 0x00, 0x00, 0x00, 0x01, 0x14, 0x00, 0x00, 0x00,
  0x1c, 0x00, 0x00, 0x00, 0x1c, 0x00, 0x00, 0x00, 0x0a, 0x00, 0x00, 0x00,
  0x58, 0x00, 0x00, 0x00, 0x02, 0x00, 0x00, 0x00, 0xff, 0xff, 0xff, 0xff,
  0x03, 0x00, 0x00, 0x00, 0x88, 0xfc, 0xff, 0xff, 0x3c, 0x00, 0x00, 0x00,
  0x73, 0x65, 0x71, 0x75, 0x65, 0x6e, 0x74, 0x69, 0x61, 0x6c, 0x5f, 0x31,
  0x2f, 0x64, 0x65, 0x6e, 0x73, 0x65, 0x5f, 0x32, 0x5f, 0x31, 0x2f, 0x4d,
  0x61, 0x74, 0x4d, 0x75, 0x6c, 0x3b, 0x73, 0x65, 0x71, 0x75, 0x65, 0x6e,
  0x74, 0x69, 0x61, 0x6c, 0x5f, 0x31, 0x2f, 0x64, 0x65, 0x6e, 0x73, 0x65,
  0x5f, 0x32, 0x5f, 0x31, 0x2f, 0x42, 0x69, 0x61, 0x73, 0x41, 0x64, 0x64,
  0x00, 0x00, 0x00, 0x00, 0x02, 0x00, 0x00, 0x00, 0x01, 0x00, 0x00, 0x00,
  0x03, 0x00, 0x00, 0x00, 0x1a, 0xfd, 0xff, 0xff, 0x00, 0x00, 0x00, 0x01,
  0x14, 0x00, 0x00, 0x00, 0x1c, 0x00, 0x00, 0x00, 0x1c, 0x00, 0x00, 0x00,
  0x09, 0x00, 0x00, 0x00, 0x74, 0x00, 0x00, 0x00, 0x02, 0x00, 0x00, 0x00,
  0xff, 0xff, 0xff, 0xff, 0x08, 0x00, 0x00, 0x00, 0x04, 0xfd, 0xff, 0xff,
  0x58, 0x00, 0x00, 0x00, 0x73, 0x65, 0x71, 0x75, 0x65, 0x6e, 0x74, 0x69,
  0x61, 0x6c, 0x5f, 0x31, 0x2f, 0x64, 0x65, 0x6e, 0x73, 0x65, 0x5f, 0x31,
  0x5f, 0x32, 0x2f, 0x4d, 0x61, 0x74, 0x4d, 0x75, 0x6c, 0x3b, 0x73, 0x65,
  0x71, 0x75, 0x65, 0x6e, 0x74, 0x69, 0x61, 0x6c, 0x5f, 0x31, 0x2f, 0x64,
  0x65, 0x6e, 0x73, 0x65, 0x5f, 0x31, 0x5f, 0x32, 0x2f, 0x52, 0x65, 0x6c,
  0x75, 0x3b, 0x73, 0x65, 0x71, 0x75, 0x65, 0x6e, 0x74, 0x69, 0x61, 0x6c,
  0x5f, 0x31, 0x2f, 0x64, 0x65, 0x6e, 0x73, 0x65, 0x5f, 0x31, 0x5f, 0x32,
  0x2f, 0x42, 0x69, 0x61, 0x73, 0x41, 0x64, 0x64, 0x00, 0x00, 0x00, 0x00,
  0x02, 0x00, 0x00, 0x00, 0x01, 0x00, 0x00, 0x00, 0x08, 0x00, 0x00, 0x00,
  0xb2, 0xfd, 0xff, 0xff, 0x00, 0x00, 0x00, 0x01, 0x14, 0x00, 0x00, 0x00,
  0x1c, 0x00, 0x00, 0x00, 0x1c, 0x00, 0x00, 0x00, 0x08, 0x00, 0x00, 0x00,
  0x6c, 0x00, 0x00, 0x00, 0x02, 0x00, 0x00, 0x00, 0xff, 0xff, 0xff, 0xff,
  0x10, 0x00, 0x00, 0x00, 0x9c, 0xfd, 0xff, 0xff, 0x52, 0x00, 0x00, 0x00,
  0x73, 0x65, 0x71, 0x75, 0x65, 0x6e, 0x74, 0x69, 0x61, 0x6c, 0x5f, 0x31,
  0x2f, 0x64, 0x65, 0x6e, 0x73, 0x65, 0x5f, 0x31, 0x2f, 0x4d, 0x61, 0x74,
  0x4d, 0x75, 0x6c, 0x3b, 0x73, 0x65, 0x71, 0x75, 0x65, 0x6e, 0x74, 0x69,
  0x61, 0x6c, 0x5f, 0x31, 0x2f, 0x64, 0x65, 0x6e, 0x73, 0x65, 0x5f, 0x31,
  0x2f, 0x52, 0x65, 0x6c, 0x75, 0x3b, 0x73, 0x65, 0x71, 0x75, 0x65, 0x6e,
  0x74, 0x69, 0x61, 0x6c, 0x5f, 0x31, 0x2f, 0x64, 0x65, 0x6e, 0x73, 0x65,
  0x5f, 0x31, 0x2f, 0x42, 0x69, 0x61, 0x73, 0x41, 0x64, 0x64, 0x00, 0x00,
  0x02, 0x00, 0x00, 0x00, 0x01, 0x00, 0x00, 0x00, 0x10, 0x00, 0x00, 0x00,
  0x96, 0xfe, 0xff, 0xff, 0x00, 0x00, 0x00, 0x01, 0x10, 0x00, 0x00, 0x00,
  0x10, 0x00, 0x00, 0x00, 0x07, 0x00, 0x00, 0x00, 0x28, 0x00, 0x00, 0x00,
  0x1c, 0xfe, 0xff, 0xff, 0x1b, 0x00, 0x00, 0x00, 0x73, 0x65, 0x71, 0x75,
  0x65, 0x6e, 0x74, 0x69, 0x61, 0x6c, 0x5f, 0x31, 0x2f, 0x64, 0x65, 0x6e,
  0x73, 0x65, 0x5f, 0x31, 0x2f, 0x4d, 0x61, 0x74, 0x4d, 0x75, 0x6c, 0x00,
  0x02, 0x00, 0x00, 0x00, 0x10, 0x00, 0x00, 0x00, 0x02, 0x00, 0x00, 0x00,
  0xde, 0xfe, 0xff, 0xff, 0x00, 0x00, 0x00, 0x01, 0x10, 0x00, 0x00, 0x00,
  0x10, 0x00, 0x00, 0x00, 0x06, 0x00, 0x00, 0x00, 0x38, 0x00, 0x00, 0x00,
  0x64, 0xfe, 0xff, 0xff, 0x2b, 0x00, 0x00, 0x00, 0x73, 0x65, 0x71, 0x75,
  0x65, 0x6e, 0x74, 0x69, 0x61, 0x6c, 0x5f, 0x31, 0x2f, 0x64, 0x65, 0x6e,
  0x73, 0x65, 0x5f, 0x31, 0x2f, 0x42, 0x69, 0x61, 0x73, 0x41, 0x64, 0x64,
  0x2f, 0x52, 0x65, 0x61, 0x64, 0x56, 0x61, 0x72, 0x69, 0x61, 0x62, 0x6c,
  0x65, 0x4f, 0x70, 0x00, 0x01, 0x00, 0x00, 0x00, 0x10, 0x00, 0x00, 0x00,
  0x32, 0xff, 0xff, 0xff, 0x00, 0x00, 0x00, 0x01, 0x10, 0x00, 0x00, 0x00,
  0x10, 0x00, 0x00, 0x00, 0x05, 0x00, 0x00, 0x00, 0x3c, 0x00, 0x00, 0x00,
  0xb8, 0xfe, 0xff, 0xff, 0x2d, 0x00, 0x00, 0x00, 0x73, 0x65, 0x71, 0x75,
  0x65, 0x6e, 0x74, 0x69, 0x61, 0x6c, 0x5f, 0x31, 0x2f, 0x64, 0x65, 0x6e,
  0x73, 0x65, 0x5f, 0x31, 0x5f, 0x32, 0x2f, 0x42, 0x69, 0x61, 0x73, 0x41,
  0x64, 0x64, 0x2f, 0x52, 0x65, 0x61, 0x64, 0x56, 0x61, 0x72, 0x69, 0x61,
  0x62, 0x6c, 0x65, 0x4f, 0x70, 0x00, 0x00, 0x00, 0x01, 0x00, 0x00, 0x00,
  0x08, 0x00, 0x00, 0x00, 0x8a, 0xff, 0xff, 0xff, 0x00, 0x00, 0x00, 0x01,
  0x10, 0x00, 0x00, 0x00, 0x10, 0x00, 0x00, 0x00, 0x04, 0x00, 0x00, 0x00,
  0x1c, 0x00, 0x00, 0x00, 0x10, 0xff, 0xff, 0xff, 0x0f, 0x00, 0x00, 0x00,
  0x61, 0x72, 0x69, 0x74, 0x68, 0x2e, 0x63, 0x6f, 0x6e, 0x73, 0x74, 0x61,
  0x6e, 0x74, 0x32, 0x00, 0x01, 0x00, 0x00, 0x00, 0x03, 0x00, 0x00, 0x00,
  0xc2, 0xff, 0xff, 0xff, 0x00, 0x00, 0x00, 0x01, 0x10, 0x00, 0x00, 0x00,
  0x10, 0x00, 0x00, 0x00, 0x03, 0x00, 0x00, 0x00, 0x1c, 0x00, 0x00, 0x00,
  0x48, 0xff, 0xff, 0xff, 0x0f, 0x00, 0x00, 0x00, 0x61, 0x72, 0x69, 0x74,
  0x68, 0x2e, 0x63, 0x6f, 0x6e, 0x73, 0x74, 0x61, 0x6e, 0x74, 0x31, 0x00,
  0x02, 0x00, 0x00, 0x00, 0x08, 0x00, 0x00, 0x00, 0x10, 0x00, 0x00, 0x00,
  0x00, 0x00, 0x16, 0x00, 0x18, 0x00, 0x14, 0x00, 0x00, 0x00, 0x10, 0x00,
  0x0c, 0x00, 0x08, 0x00, 0x00, 0x00, 0x00, 0x00, 0x00, 0x00, 0x07, 0x00,
  0x16, 0x00, 0x00, 0x00, 0x00, 0x00, 0x00, 0x01, 0x10, 0x00, 0x00, 0x00,
  0x10, 0x00, 0x00, 0x00, 0x02, 0x00, 0x00, 0x00, 0x1c, 0x00, 0x00, 0x00,
  0x9c, 0xff, 0xff, 0xff, 0x0e, 0x00, 0x00, 0x00, 0x61, 0x72, 0x69, 0x74,
  0x68, 0x2e, 0x63, 0x6f, 0x6e, 0x73, 0x74, 0x61, 0x6e, 0x74, 0x00, 0x00,
  0x02, 0x00, 0x00, 0x00, 0x03, 0x00, 0x00, 0x00, 0x08, 0x00, 0x00, 0x00,
  0x00, 0x00, 0x16, 0x00, 0x1c, 0x00, 0x18, 0x00, 0x00, 0x00, 0x14, 0x00,
  0x10, 0x00, 0x0c, 0x00, 0x00, 0x00, 0x00, 0x00, 0x08, 0x00, 0x07, 0x00,
  0x16, 0x00, 0x00, 0x00, 0x00, 0x00, 0x00, 0x01, 0x14, 0x00, 0x00, 0x00,
  0x20, 0x00, 0x00, 0x00, 0x20, 0x00, 0x00, 0x00, 0x01, 0x00, 0x00, 0x00,
  0x3c, 0x00, 0x00, 0x00, 0x02, 0x00, 0x00, 0x00, 0xff, 0xff, 0xff, 0xff,
  0x02, 0x00, 0x00, 0x00, 0x04, 0x00, 0x04, 0x00, 0x04, 0x00, 0x00, 0x00,
  0x1e, 0x00, 0x00, 0x00, 0x73, 0x65, 0x72, 0x76, 0x69, 0x6e, 0x67, 0x5f,
  0x64, 0x65, 0x66, 0x61, 0x75, 0x6c, 0x74, 0x5f, 0x6b, 0x65, 0x72, 0x61,
  0x73, 0x5f, 0x74, 0x65, 0x6e, 0x73, 0x6f, 0x72, 0x3a, 0x30, 0x00, 0x00,
  0x02, 0x00, 0x00, 0x00, 0x01, 0x00, 0x00, 0x00, 0x02, 0x00, 0x00, 0x00,
  0x02, 0x00, 0x00, 0x00, 0x20, 0x00, 0x00, 0x00, 0x04, 0x00, 0x00, 0x00,
  0xf4, 0xff, 0xff, 0xff, 0x19, 0x00, 0x00, 0x00, 0x00, 0x00, 0x00, 0x19,
  0x0c, 0x00, 0x0c, 0x00, 0x0b, 0x00, 0x00, 0x00, 0x00, 0x00, 0x04, 0x00,
  0x0c, 0x00, 0x00, 0x00, 0x09, 0x00, 0x00, 0x00, 0x00, 0x00, 0x00, 0x09,
};

#endif
